TRT-8401-MinMaxCalibration
input: 7c00bd8d
onnx::Shape_485: 7b2adeac
(Unnamed Layer* 1) [Constant]_output: 3ca9d076
(Unnamed Layer* 4) [Shuffle]_output: 7c010204
(Unnamed Layer* 5) [Shuffle]_output: 3d14869b
(Unnamed Layer* 6) [ElementWise]_output: 3ca9d076
onnx::Exp_620: 3ca9d076
(Unnamed Layer* 8) [Constant]_output: 3cd07662
(Unnamed Layer* 10) [Shuffle]_output: 7c010204
(Unnamed Layer* 11) [Shuffle]_output: 3d14869b
(Unnamed Layer* 12) [ElementWise]_output: 3cd07662
onnx::Exp_843: 3cd07662
(Unnamed Layer* 14) [Constant]_output: 3c9ce408
(Unnamed Layer* 16) [Shuffle]_output: 7c010204
(Unnamed Layer* 17) [Shuffle]_output: 3d14869b
(Unnamed Layer* 18) [ElementWise]_output: 3c9ce408
onnx::Exp_1166: 3c9ce408
(Unnamed Layer* 20) [Constant]_output: 3cd60031
(Unnamed Layer* 22) [Shuffle]_output: 7c010204
(Unnamed Layer* 23) [Shuffle]_output: 3d14869b
(Unnamed Layer* 24) [ElementWise]_output: 3cd60031
onnx::Exp_1389: 3cd60031
(Unnamed Layer* 26) [Constant]_output: 3cbaeb55
(Unnamed Layer* 28) [Shuffle]_output: 7c010204
(Unnamed Layer* 29) [Shuffle]_output: 3d14869b
(Unnamed Layer* 30) [ElementWise]_output: 3cbaeb55
onnx::Exp_1712: 3cbaeb55
(Unnamed Layer* 32) [Constant]_output: 3c9593c9
(Unnamed Layer* 34) [Shuffle]_output: 7c010204
(Unnamed Layer* 35) [Shuffle]_output: 3d14869b
(Unnamed Layer* 36) [ElementWise]_output: 3c9593c9
onnx::Exp_1935: 3c9593c9
(Unnamed Layer* 38) [Constant]_output: 3cb8de60
(Unnamed Layer* 40) [Shuffle]_output: 7c010204
(Unnamed Layer* 41) [Shuffle]_output: 3d14869b
(Unnamed Layer* 42) [ElementWise]_output: 3cb8de60
onnx::Exp_2182: 3cb8de60
(Unnamed Layer* 44) [Constant]_output: 3caede5e
(Unnamed Layer* 46) [Shuffle]_output: 7c010204
(Unnamed Layer* 47) [Shuffle]_output: 3d14869b
(Unnamed Layer* 48) [ElementWise]_output: 3caede5e
onnx::Exp_2405: 3caede5e
(Unnamed Layer* 50) [Constant]_output: 3ca56723
(Unnamed Layer* 52) [Shuffle]_output: 7c010204
(Unnamed Layer* 53) [Shuffle]_output: 3d14869b
(Unnamed Layer* 54) [ElementWise]_output: 3ca56723
onnx::Exp_2652: 3ca56723
(Unnamed Layer* 56) [Constant]_output: 3cb9f548
(Unnamed Layer* 58) [Shuffle]_output: 7c010204
(Unnamed Layer* 59) [Shuffle]_output: 3d14869b
(Unnamed Layer* 60) [ElementWise]_output: 3cb9f548
onnx::Exp_2875: 3cb9f548
(Unnamed Layer* 62) [Constant]_output: 3cb70116
(Unnamed Layer* 64) [Shuffle]_output: 7c010204
(Unnamed Layer* 65) [Shuffle]_output: 3d14869b
(Unnamed Layer* 66) [ElementWise]_output: 3cb70116
onnx::Exp_3122: 3cb70116
(Unnamed Layer* 68) [Constant]_output: 3cb3d719
(Unnamed Layer* 70) [Shuffle]_output: 7c010204
(Unnamed Layer* 71) [Shuffle]_output: 3d14869b
(Unnamed Layer* 72) [ElementWise]_output: 3cb3d719
onnx::Exp_3345: 3cb3d719
(Unnamed Layer* 74) [Constant]_output: 3cbb4d3d
(Unnamed Layer* 76) [Shuffle]_output: 7c010204
(Unnamed Layer* 77) [Shuffle]_output: 3d14869b
(Unnamed Layer* 78) [ElementWise]_output: 3cbb4d3d
onnx::Exp_3592: 3cbb4d3d
(Unnamed Layer* 80) [Constant]_output: 3cbded98
(Unnamed Layer* 82) [Shuffle]_output: 7c010204
(Unnamed Layer* 83) [Shuffle]_output: 3d14869b
(Unnamed Layer* 84) [ElementWise]_output: 3cbded98
onnx::Exp_3815: 3cbded98
(Unnamed Layer* 86) [Constant]_output: 3cc41d6a
(Unnamed Layer* 88) [Shuffle]_output: 7c010204
(Unnamed Layer* 89) [Shuffle]_output: 3d14869b
(Unnamed Layer* 90) [ElementWise]_output: 3cc41d6a
onnx::Exp_4062: 3cc41d6a
(Unnamed Layer* 92) [Constant]_output: 3cc4e456
(Unnamed Layer* 94) [Shuffle]_output: 7c010204
(Unnamed Layer* 95) [Shuffle]_output: 3d14869b
(Unnamed Layer* 96) [ElementWise]_output: 3cc4e456
onnx::Exp_4285: 3cc4e456
(Unnamed Layer* 98) [Constant]_output: 3cc22ea3
(Unnamed Layer* 100) [Shuffle]_output: 7c010204
(Unnamed Layer* 101) [Shuffle]_output: 3d14869b
(Unnamed Layer* 102) [ElementWise]_output: 3cc22ea3
onnx::Exp_4532: 3cc22ea3
(Unnamed Layer* 104) [Constant]_output: 3cc4f736
(Unnamed Layer* 106) [Shuffle]_output: 7c010204
(Unnamed Layer* 107) [Shuffle]_output: 3d14869b
(Unnamed Layer* 108) [ElementWise]_output: 3cc4f736
onnx::Exp_4755: 3cc4f736
(Unnamed Layer* 110) [Constant]_output: 3cc3bcd6
(Unnamed Layer* 112) [Shuffle]_output: 7c010204
(Unnamed Layer* 113) [Shuffle]_output: 3d14869b
(Unnamed Layer* 114) [ElementWise]_output: 3cc3bcd6
onnx::Exp_5002: 3cc3bcd6
(Unnamed Layer* 116) [Constant]_output: 3cc81244
(Unnamed Layer* 118) [Shuffle]_output: 7c010204
(Unnamed Layer* 119) [Shuffle]_output: 3d14869b
(Unnamed Layer* 120) [ElementWise]_output: 3cc81244
onnx::Exp_5225: 3cc81244
(Unnamed Layer* 122) [Constant]_output: 3cc4455d
(Unnamed Layer* 124) [Shuffle]_output: 7c010204
(Unnamed Layer* 125) [Shuffle]_output: 3d14869b
(Unnamed Layer* 126) [ElementWise]_output: 3cc4455d
onnx::Exp_5472: 3cc4455d
(Unnamed Layer* 128) [Constant]_output: 3cd063f4
(Unnamed Layer* 130) [Shuffle]_output: 7c010204
(Unnamed Layer* 131) [Shuffle]_output: 3d14869b
(Unnamed Layer* 132) [ElementWise]_output: 3cd063f4
onnx::Exp_5695: 3cd063f4
(Unnamed Layer* 134) [Constant]_output: 3cc03cb9
(Unnamed Layer* 136) [Shuffle]_output: 7c010204
(Unnamed Layer* 137) [Shuffle]_output: 3d14869b
(Unnamed Layer* 138) [ElementWise]_output: 3cc03cb9
onnx::Exp_6018: 3cc03cb9
(Unnamed Layer* 140) [Constant]_output: 3cc31dcf
(Unnamed Layer* 142) [Shuffle]_output: 7c010204
(Unnamed Layer* 143) [Shuffle]_output: 3d14869b
(Unnamed Layer* 144) [ElementWise]_output: 3cc31dcf
onnx::Exp_6223: 3cc31dcf
onnx::Mul_621: 3de050a1
onnx::Mul_844: 3e4c3149
onnx::Mul_1167: 3db796b8
onnx::Mul_1390: 3e5e7fc9
onnx::Mul_1713: 3e123723
onnx::Mul_1936: 3da3e8fb
onnx::Mul_2183: 3e0da3e9
onnx::Mul_2406: 3df29936
onnx::Mul_2653: 3dd17ca4
onnx::Mul_2876: 3e100d88
onnx::Mul_3123: 3e099add
onnx::Mul_3346: 3e03049f
onnx::Mul_3593: 3e1315be
onnx::Mul_3816: 3e193284
onnx::Mul_4063: 3e289e67
onnx::Mul_4286: 3e2aa988
onnx::Mul_4533: 3e23a433
onnx::Mul_4756: 3e2adb82
onnx::Mul_5003: 3e27a2a9
onnx::Mul_5226: 3e3348f3
onnx::Mul_5473: 3e2906f3
onnx::Mul_5696: 3e4bf6f9
onnx::Mul_6019: 3e1ec7e2
onnx::Mul_6224: 3e26075e
input.1: 7b2adeac
onnx::Mul_503: 3d4f9116
(Unnamed Layer* 178) [Shuffle]_output: 3d39b55c
onnx::Add_504: 3db66506
(Unnamed Layer* 181) [Shuffle]_output: 3c8686a4
input.4: 3db94a02
onnx::Reshape_550: 3db94a02
onnx::Add_579: 3db5a97d
(Unnamed Layer* 244) [Shuffle]_output: 3c508f81
onnx::Reshape_580: 3db855a3
onnx::Gather_591: 3db855a3
q: 3db855a3
k: 3d7cd542
onnx::MatMul_597: 3d6f37bf
(Unnamed Layer* 262) [ElementWise]_output: 3f83b1c1
(Unnamed Layer* 263) [Reduce]_output: 4004b842
onnx::Clip_598: 3e02d9c5
(Unnamed Layer* 266) [ElementWise]_output: 3ef7c121
(Unnamed Layer* 267) [Reduce]_output: 3f96b641
onnx::Clip_606: 3dc5320a
(Unnamed Layer* 272) [Shuffle]_output: 280dd87d
(Unnamed Layer* 273) [Shuffle]_output: 7c010204
(Unnamed Layer* 274) [ElementWise]_output: 3e02d9c5
onnx::Expand_602: 3e02d9c5
(Unnamed Layer* 277) [Shuffle]_output: 280dd87d
(Unnamed Layer* 278) [Shuffle]_output: 7c010204
(Unnamed Layer* 279) [ElementWise]_output: 3dc5320a
onnx::Expand_610: 3dc5320a
onnx::Div_604: 3e02d9c5
onnx::Div_612: 3dc5320a
onnx::MatMul_605: 3bfaae63
onnx::Transpose_613: 3be1e47c
onnx::MatMul_614: 3be1e47c
onnx::Mul_615: 3c0046db
(Unnamed Layer* 305) [Shuffle]_output: 3de050a1
onnx::Add_622: 3ddf0b34
input.12: 3e56781c
(Unnamed Layer* 318) [Shuffle]_output: 3e56781c
(Unnamed Layer* 319) [Softmax]_output: 3c010043
input.16: 3c010043
onnx::Transpose_643: 3d24f7bc
onnx::Add_651: 3ce8efe5
(Unnamed Layer* 329) [Shuffle]_output: 3c7c19b7
input.20: 3d079041
onnx::Reshape_664: 3d079041
input.24: 3d079041
onnx::Mul_681: 3d422353
(Unnamed Layer* 338) [Shuffle]_output: 3cc9a837
onnx::Add_682: 3d870133
(Unnamed Layer* 341) [Shuffle]_output: 3bed16fc
onnx::Add_683: 3d854d19
onnx::MatMul_684: 3dddc0d8
onnx::Add_686: 3dc9c41d
(Unnamed Layer* 348) [Shuffle]_output: 3c339b50
onnx::Div_687: 3dc86d35
(Unnamed Layer* 351) [Shuffle]_output: 3c3671d7
onnx::Erf_689: 3d8db917
onnx::Add_690: 3c010204
(Unnamed Layer* 355) [Shuffle]_output: 3c010204
onnx::Mul_692: 3c810204
onnx::Mul_693: 3e486d35
(Unnamed Layer* 359) [Shuffle]_output: 3b810204
input.28: 3dc86d35
onnx::Add_697: 3d41f2dd
(Unnamed Layer* 365) [Shuffle]_output: 3b5c1b22
input.32: 3d45a0cc
onnx::Mul_707: 3d6038f3
(Unnamed Layer* 369) [Shuffle]_output: 3c81137e
onnx::Add_708: 3d997da5
(Unnamed Layer* 372) [Shuffle]_output: 3c179464
onnx::Add_709: 3d986f96
onnx::Shape_710: 3e028a4d
onnx::Slice_724: 3e028a4d
onnx::Concat_728: 3e028a4d
onnx::Concat_732: 3e0132b7
onnx::Slice_733: 3e028a4d
onnx::Concat_737: 3e028a4d
onnx::Concat_741: 3e025dc6
shifted_x: 3e028a4d
onnx::Reshape_773: 3e028a4d
onnx::Add_802: 3d4e17bd
(Unnamed Layer* 526) [Shuffle]_output: 3cabb7d5
onnx::Reshape_803: 3d8b1a84
onnx::Gather_814: 3d8b1a84
q.3: 3d8b1a84
k.3: 3d281a3a
onnx::MatMul_820: 3d50e346
(Unnamed Layer* 552) [ElementWise]_output: 3f15fd45
(Unnamed Layer* 553) [Reduce]_output: 3f92b88d
onnx::Clip_821: 3dc29124
(Unnamed Layer* 556) [ElementWise]_output: 3e5b0b55
(Unnamed Layer* 557) [Reduce]_output: 3f4ea86f
onnx::Clip_829: 3da347cb
(Unnamed Layer* 561) [Shuffle]_output: 280dd87d
(Unnamed Layer* 562) [Shuffle]_output: 7c010204
(Unnamed Layer* 563) [ElementWise]_output: 3dc29124
onnx::Expand_825: 3dc29124
(Unnamed Layer* 566) [Shuffle]_output: 280dd87d
(Unnamed Layer* 567) [Shuffle]_output: 7c010204
(Unnamed Layer* 568) [ElementWise]_output: 3da347cb
onnx::Expand_833: 3da347cb
onnx::Div_827: 3dc29124
onnx::Div_835: 3da347cb
onnx::MatMul_828: 3be3dccc
onnx::Transpose_836: 3bc68038
onnx::MatMul_837: 3bc68038
onnx::Mul_838: 3bff0286
(Unnamed Layer* 594) [Shuffle]_output: 3e4c3149
onnx::Add_845: 3e49d04d
onnx::Reshape_864: 3e8e7a12
onnx::Add_877: 3e8e7a12
(Unnamed Layer* 599) [Constant]_output: 3f499326
onnx::Reshape_880: 3f60f13b
(Unnamed Layer* 611) [Shuffle]_output: 3f60f13b
(Unnamed Layer* 612) [Softmax]_output: 3c010204
input.44: 3c010204
onnx::Transpose_890: 3d419472
onnx::Add_898: 3d1b003d
(Unnamed Layer* 622) [Shuffle]_output: 3c72ba33
input.48: 3d05717e
onnx::Reshape_911: 3d05717e
onnx::Slice_913: 3d05717e
onnx::Concat_917: 0
onnx::Concat_921: 3d05717e
onnx::Slice_922: 3d05717e
onnx::Concat_926: 3cf1270e
onnx::Concat_930: 3d05717e
onnx::Reshape_931: 3d05717e
input.52: 3d05717e
onnx::Mul_946: 3d45392e
(Unnamed Layer* 725) [Shuffle]_output: 3c52cd33
onnx::Add_947: 3d5c5cdc
(Unnamed Layer* 728) [Shuffle]_output: 3bc3778e
onnx::Add_948: 3d60f906
onnx::MatMul_949: 3e25ba38
onnx::Add_951: 3dfb6cd7
(Unnamed Layer* 735) [Shuffle]_output: 3c29e3c7
onnx::Div_952: 3dffd600
(Unnamed Layer* 738) [Shuffle]_output: 3c3671d7
onnx::Erf_954: 3db4e741
onnx::Add_955: 3c010204
(Unnamed Layer* 742) [Shuffle]_output: 3c010204
onnx::Mul_957: 3c810204
onnx::Mul_958: 3e44b0ef
(Unnamed Layer* 746) [Shuffle]_output: 3b810204
input.56: 3dc4b0ef
onnx::Add_962: 3cba4974
(Unnamed Layer* 752) [Shuffle]_output: 3be683b8
input.60: 3cb7810b
onnx::Mul_972: 3d37d1ff
(Unnamed Layer* 756) [Shuffle]_output: 3c61fb8b
onnx::Add_973: 3d88dbd2
(Unnamed Layer* 759) [Shuffle]_output: 3ba0e80c
onnx::Add_974: 3d8685c7
onnx::Shape_975: 3e3fd16f
onnx::Slice_989: 3e3fd16f
onnx::Slice_994: 3e3fd16f
onnx::Slice_1004: 3e3d9e3b
onnx::Slice_1014: 3e3fd16f
onnx::Slice_1024: 3e3d9e3b
onnx::Concat_999: 3e3fd16f
onnx::Concat_1009: 3e3d9e3b
onnx::Concat_1019: 3e379562
onnx::Concat_1029: 3e3b6f07
onnx::Reshape_1030: 3e3fd16f
input.64: 3e6172e5
onnx::Mul_1049: 3d8ea635
(Unnamed Layer* 1000) [Shuffle]_output: 3c51f8ad
onnx::Add_1050: 3d982eca
(Unnamed Layer* 1003) [Shuffle]_output: 3bf14586
onnx::Shape_1051: 3d922161
onnx::Reshape_1096: 3d922161
onnx::Add_1125: 3d87f78a
(Unnamed Layer* 1064) [Shuffle]_output: 3caf61b4
onnx::Reshape_1126: 3d87f78a
onnx::Gather_1137: 3d87f78a
q.7: 3d69448c
k.7: 3d87f78a
onnx::MatMul_1143: 3d5e64ce
(Unnamed Layer* 1082) [ElementWise]_output: 3ed2e4bd
(Unnamed Layer* 1083) [Reduce]_output: 3fb70db1
onnx::Clip_1144: 3dd95383
(Unnamed Layer* 1086) [ElementWise]_output: 3f0f4d2a
(Unnamed Layer* 1087) [Reduce]_output: 401d80d6
onnx::Clip_1152: 3e0e8b98
(Unnamed Layer* 1091) [Shuffle]_output: 280dd87d
(Unnamed Layer* 1092) [Shuffle]_output: 7c010204
(Unnamed Layer* 1093) [ElementWise]_output: 3dd95383
onnx::Expand_1148: 3dd95383
(Unnamed Layer* 1096) [Shuffle]_output: 280dd87d
(Unnamed Layer* 1097) [Shuffle]_output: 7c010204
(Unnamed Layer* 1098) [ElementWise]_output: 3e0e8b98
onnx::Expand_1156: 3e0e8b98
onnx::Div_1150: 3dd95383
onnx::Div_1158: 3e0e8b98
onnx::MatMul_1151: 3bd804d1
onnx::Transpose_1159: 3bcfc41d
onnx::MatMul_1160: 3bcfc41d
onnx::Mul_1161: 3bfe692f
(Unnamed Layer* 1124) [Shuffle]_output: 3db796b8
onnx::Add_1168: 3db4f0a1
input.72: 3e5acfbb
(Unnamed Layer* 1137) [Shuffle]_output: 3e5acfbb
(Unnamed Layer* 1138) [Softmax]_output: 3c010204
input.76: 3c010204
onnx::Transpose_1189: 3d3fd5ee
onnx::Add_1197: 3d194b6a
(Unnamed Layer* 1148) [Shuffle]_output: 3d1b588b
input.80: 3d913b0e
onnx::Reshape_1210: 3d913b0e
input.84: 3d913b0e
onnx::Mul_1227: 3d60a17d
(Unnamed Layer* 1157) [Shuffle]_output: 3c057cce
onnx::Add_1228: 3d0f0cb6
(Unnamed Layer* 1160) [Shuffle]_output: 3b921aff
onnx::Add_1229: 3d0d7394
onnx::MatMul_1230: 3dad7f3b
onnx::Add_1232: 3d9be15e
(Unnamed Layer* 1167) [Shuffle]_output: 3c54fd5f
onnx::Div_1233: 3da73cbe
(Unnamed Layer* 1170) [Shuffle]_output: 3c3671d7
onnx::Erf_1235: 3d6c825e
onnx::Add_1236: 3c010204
(Unnamed Layer* 1174) [Shuffle]_output: 3c010204
onnx::Mul_1238: 3c810204
onnx::Mul_1239: 3e074fb2
(Unnamed Layer* 1178) [Shuffle]_output: 3b810204
input.88: 3d874fb2
onnx::Add_1243: 3d03110d
(Unnamed Layer* 1184) [Shuffle]_output: 3c88bee2
input.92: 3d200ce6
onnx::Mul_1253: 3d5df72f
(Unnamed Layer* 1188) [Shuffle]_output: 3c3b1e75
onnx::Add_1254: 3d84de67
(Unnamed Layer* 1191) [Shuffle]_output: 3bc55c1b
onnx::Add_1255: 3d84f552
onnx::Shape_1256: 3da9e20d
onnx::Slice_1270: 3da9e20d
onnx::Concat_1274: 3da9e20d
onnx::Concat_1278: 3da7c2eb
onnx::Slice_1279: 3da9e20d
onnx::Concat_1283: 3da9e20d
onnx::Concat_1287: 3da044ff
shifted_x.3: 3da9e20d
onnx::Reshape_1319: 3da9e20d
onnx::Add_1348: 3d9d56c1
(Unnamed Layer* 1345) [Shuffle]_output: 3cff2db7
onnx::Reshape_1349: 3d9eac4f
onnx::Gather_1360: 3d9eac4f
q.11: 3d921de8
k.11: 3d2aa41c
onnx::MatMul_1366: 3d9eac4f
(Unnamed Layer* 1372) [ElementWise]_output: 3f257ea7
(Unnamed Layer* 1373) [Reduce]_output: 3f97cb6f
onnx::Clip_1367: 3dc5e70c
(Unnamed Layer* 1376) [ElementWise]_output: 3e61b5c4
(Unnamed Layer* 1377) [Reduce]_output: 3f82bfe7
onnx::Clip_1375: 3db7ac12
(Unnamed Layer* 1381) [Shuffle]_output: 280dd87d
(Unnamed Layer* 1382) [Shuffle]_output: 7c010204
(Unnamed Layer* 1383) [ElementWise]_output: 3dc5e70c
onnx::Expand_1371: 3dc5e70c
(Unnamed Layer* 1386) [Shuffle]_output: 280dd87d
(Unnamed Layer* 1387) [Shuffle]_output: 7c010204
(Unnamed Layer* 1388) [ElementWise]_output: 3db7ac12
onnx::Expand_1379: 3db7ac12
onnx::Div_1373: 3dc5e70c
onnx::Div_1381: 3db7ac12
onnx::MatMul_1374: 3bf73cd2
onnx::Transpose_1382: 3bc72c0d
onnx::MatMul_1383: 3bc72c0d
onnx::Mul_1384: 3bfb9cf3
(Unnamed Layer* 1414) [Shuffle]_output: 3e5e7fc9
onnx::Add_1391: 3e58fa54
onnx::Reshape_1410: 3ea68a0a
onnx::Add_1423: 3ea68a0a
(Unnamed Layer* 1419) [Constant]_output: 3f499326
onnx::Reshape_1426: 3f55f2e8
(Unnamed Layer* 1431) [Shuffle]_output: 3f55f2e8
(Unnamed Layer* 1432) [Softmax]_output: 3c0101f5
input.104: 3c0101f5
onnx::Transpose_1436: 3d8102e9
onnx::Add_1444: 3d378dbb
(Unnamed Layer* 1442) [Shuffle]_output: 3c817ad8
input.108: 3d2547f2
onnx::Reshape_1457: 3d2547f2
onnx::Slice_1459: 3d2547f2
onnx::Concat_1463: 0
onnx::Concat_1467: 3d2547f2
onnx::Slice_1468: 3d2547f2
onnx::Concat_1472: 3d2547f2
onnx::Concat_1476: 3d1eb332
onnx::Reshape_1477: 3d2547f2
input.112: 3d2547f2
onnx::Mul_1492: 3d5ea4a6
(Unnamed Layer* 1545) [Shuffle]_output: 3be5f9b8
onnx::Add_1493: 3d4263f9
(Unnamed Layer* 1548) [Shuffle]_output: 3c28dab6
onnx::Add_1494: 3d182d4c
onnx::MatMul_1495: 3dc45738
onnx::Add_1497: 3da607bb
(Unnamed Layer* 1555) [Shuffle]_output: 3c248ec7
onnx::Div_1498: 3dae8dbe
(Unnamed Layer* 1558) [Shuffle]_output: 3c3671d7
onnx::Erf_1500: 3d76db2f
onnx::Add_1501: 3c010204
(Unnamed Layer* 1562) [Shuffle]_output: 3c010204
onnx::Mul_1503: 3c810204
onnx::Mul_1504: 3e0679b4
(Unnamed Layer* 1566) [Shuffle]_output: 3b810204
input.116: 3d8679b4
onnx::Add_1508: 3d637cfe
(Unnamed Layer* 1572) [Shuffle]_output: 3cabf0f1
input.120: 3d1414d2
onnx::Mul_1518: 3d692f6f
(Unnamed Layer* 1576) [Shuffle]_output: 3c8d3954
onnx::Add_1519: 3da36bb0
(Unnamed Layer* 1579) [Shuffle]_output: 3b5b42e3
onnx::Add_1520: 3da5ae91
onnx::Shape_1521: 3dca7c9b
onnx::Slice_1535: 3dca7c9b
onnx::Slice_1540: 3dca7c9b
onnx::Slice_1550: 3dc99c17
onnx::Slice_1560: 3dca7c9b
onnx::Slice_1570: 3dc99c17
onnx::Concat_1545: 3db7072a
onnx::Concat_1555: 3dc59994
onnx::Concat_1565: 3dca7c9b
onnx::Concat_1575: 3dc99c17
onnx::Reshape_1576: 3dca7c9b
input.124: 3e6c4bff
onnx::Mul_1595: 3d7861f4
(Unnamed Layer* 1820) [Shuffle]_output: 3be3a3b2
onnx::Add_1596: 3cf3724e
(Unnamed Layer* 1823) [Shuffle]_output: 3b8b2103
onnx::Shape_1597: 3cfdf330
onnx::Reshape_1642: 3cfdf330
onnx::Add_1671: 3d44f825
(Unnamed Layer* 1883) [Shuffle]_output: 3d247603
onnx::Reshape_1672: 3db4b714
onnx::Gather_1683: 3db4b714
q.15: 3db4b714
k.15: 3d310805
onnx::MatMul_1689: 3d25e67b
(Unnamed Layer* 1901) [ElementWise]_output: 3f7d25a6
(Unnamed Layer* 1902) [Reduce]_output: 402f9bbd
onnx::Clip_1690: 3e1683ec
(Unnamed Layer* 1905) [ElementWise]_output: 3e72ee7e
(Unnamed Layer* 1906) [Reduce]_output: 3f934795
onnx::Clip_1698: 3dc2efe4
(Unnamed Layer* 1910) [Shuffle]_output: 280dd87d
(Unnamed Layer* 1911) [Shuffle]_output: 7c010204
(Unnamed Layer* 1912) [ElementWise]_output: 3e1683ec
onnx::Expand_1694: 3e1683ec
(Unnamed Layer* 1915) [Shuffle]_output: 280dd87d
(Unnamed Layer* 1916) [Shuffle]_output: 7c010204
(Unnamed Layer* 1917) [ElementWise]_output: 3dc2efe4
onnx::Expand_1702: 3dc2efe4
onnx::Div_1696: 3e1683ec
onnx::Div_1704: 3dc2efe4
onnx::MatMul_1697: 3bf3ee69
onnx::Transpose_1705: 3bc84896
onnx::MatMul_1706: 3bc84896
onnx::Mul_1707: 3bfd8872
(Unnamed Layer* 1943) [Shuffle]_output: 3e123723
onnx::Add_1714: 3e0facd0
input.132: 3e884249
(Unnamed Layer* 1956) [Shuffle]_output: 3e884249
(Unnamed Layer* 1957) [Softmax]_output: 3c010204
input.136: 3c010204
onnx::Transpose_1735: 3d0a2060
onnx::Add_1743: 3d21ad1e
(Unnamed Layer* 1967) [Shuffle]_output: 3d7b2b49
input.140: 3d98ba4a
onnx::Reshape_1756: 3d98ba4a
input.144: 3d98ba4a
onnx::Mul_1773: 3d3c1c04
(Unnamed Layer* 1976) [Shuffle]_output: 3bb199cf
onnx::Add_1774: 3c9aad46
(Unnamed Layer* 1979) [Shuffle]_output: 3b0acc88
onnx::Add_1775: 3c95b66c
onnx::MatMul_1776: 3cfc68ab
onnx::Add_1778: 3d2e9bf2
(Unnamed Layer* 1986) [Shuffle]_output: 3c5303d8
onnx::Div_1779: 3d55e1e4
(Unnamed Layer* 1989) [Shuffle]_output: 3c3671d7
onnx::Erf_1781: 3d173cd9
onnx::Add_1782: 3c010204
(Unnamed Layer* 1993) [Shuffle]_output: 3c010204
onnx::Mul_1784: 3c80ff80
onnx::Mul_1785: 3d744712
(Unnamed Layer* 1997) [Shuffle]_output: 3b810204
input.148: 3cf44712
onnx::Add_1789: 3d2b53da
(Unnamed Layer* 2003) [Shuffle]_output: 3d171d1b
input.152: 3d3c3353
onnx::Mul_1799: 3da8b83a
(Unnamed Layer* 2007) [Shuffle]_output: 3b540fda
onnx::Add_1800: 3c4a113e
(Unnamed Layer* 2010) [Shuffle]_output: 3b2e9bcb
onnx::Add_1801: 3c47f309
onnx::Shape_1802: 3d07cc07
onnx::Slice_1816: 3d07cc07
onnx::Concat_1820: 3d07cc07
onnx::Concat_1824: 0
onnx::Slice_1825: 3d07cc07
onnx::Concat_1829: 3d07cc07
onnx::Concat_1833: 3d003f67
shifted_x.7: 3d07cc07
onnx::Reshape_1865: 3d07cc07
onnx::Add_1894: 3d0fc049
(Unnamed Layer* 2164) [Shuffle]_output: 3cf76ca7
onnx::Reshape_1895: 3d665e9b
onnx::Gather_1906: 3d665e9b
q.19: 3d665e9b
k.19: 3cfab7a2
onnx::MatMul_1912: 3d0cb98b
(Unnamed Layer* 2191) [ElementWise]_output: 3ecdaf86
(Unnamed Layer* 2192) [Reduce]_output: 3f9ad6d3
onnx::Clip_1913: 3dc7e097
(Unnamed Layer* 2195) [ElementWise]_output: 3df3a016
(Unnamed Layer* 2196) [Reduce]_output: 3f704534
onnx::Clip_1921: 3db00f19
(Unnamed Layer* 2200) [Shuffle]_output: 280dd87d
(Unnamed Layer* 2201) [Shuffle]_output: 7c010204
(Unnamed Layer* 2202) [ElementWise]_output: 3dc7e097
onnx::Expand_1917: 3dc7e097
(Unnamed Layer* 2205) [Shuffle]_output: 280dd87d
(Unnamed Layer* 2206) [Shuffle]_output: 7c010204
(Unnamed Layer* 2207) [ElementWise]_output: 3db00f19
onnx::Expand_1925: 3db00f19
onnx::Div_1919: 3dc7e097
onnx::Div_1927: 3db00f19
onnx::MatMul_1920: 3be10fb0
onnx::Transpose_1928: 3bb1cbf6
onnx::MatMul_1929: 3bb1cbf6
onnx::Mul_1930: 3bf9a016
(Unnamed Layer* 2233) [Shuffle]_output: 3da3e8fb
onnx::Add_1937: 3d981259
onnx::Reshape_1956: 3e4bda76
onnx::Add_1969: 3e4bda76
(Unnamed Layer* 2238) [Constant]_output: 3f499326
onnx::Reshape_1972: 3f58a1f1
(Unnamed Layer* 2250) [Shuffle]_output: 3f58a1f1
(Unnamed Layer* 2251) [Softmax]_output: 0
input.164: 0
onnx::Transpose_1982: 0
onnx::Add_1990: 0
(Unnamed Layer* 2261) [Shuffle]_output: 3d85dc20
input.168: 0
onnx::Reshape_2003: 0
onnx::Slice_2005: 0
onnx::Concat_2009: 0
onnx::Concat_2013: 0
onnx::Slice_2014: 0
onnx::Concat_2018: 0
onnx::Concat_2022: 0
onnx::Reshape_2023: 0
input.172: 0
onnx::Mul_2038: 0
(Unnamed Layer* 2364) [Shuffle]_output: 3b807033
onnx::Add_2039: 0
(Unnamed Layer* 2367) [Shuffle]_output: 3b151f95
onnx::Add_2040: 0
onnx::MatMul_2041: 0
onnx::Add_2043: 0
(Unnamed Layer* 2374) [Shuffle]_output: 3c587169
onnx::Div_2044: 0
(Unnamed Layer* 2377) [Shuffle]_output: 3c3671d7
onnx::Erf_2046: 0
onnx::Add_2047: 0
(Unnamed Layer* 2381) [Shuffle]_output: 3c010204
onnx::Mul_2049: 0
onnx::Mul_2050: 0
(Unnamed Layer* 2385) [Shuffle]_output: 3b810204
input.176: 0
onnx::Add_2054: 0
(Unnamed Layer* 2391) [Shuffle]_output: 3d24780e
input.180: 0
onnx::Mul_2064: 0
(Unnamed Layer* 2395) [Shuffle]_output: 3b6b62bc
onnx::Add_2065: 0
(Unnamed Layer* 2398) [Shuffle]_output: 3b3a6847
onnx::Add_2066: 0
onnx::Shape_2067: 0
onnx::Reshape_2112: 0
onnx::Add_2141: 0
(Unnamed Layer* 2458) [Shuffle]_output: 3ceb07a6
onnx::Reshape_2142: 0
onnx::Gather_2153: 0
q.23: 0
k.23: 0
onnx::MatMul_2159: 0
(Unnamed Layer* 2475) [ElementWise]_output: 0
(Unnamed Layer* 2476) [Reduce]_output: 0
onnx::Clip_2160: 0
(Unnamed Layer* 2479) [ElementWise]_output: 0
(Unnamed Layer* 2480) [Reduce]_output: 0
onnx::Clip_2168: 0
(Unnamed Layer* 2484) [Shuffle]_output: 280dd87d
(Unnamed Layer* 2485) [Shuffle]_output: 7c010204
(Unnamed Layer* 2486) [ElementWise]_output: 280dd87d
onnx::Expand_2164: 280dd87d
(Unnamed Layer* 2489) [Shuffle]_output: 280dd87d
(Unnamed Layer* 2490) [Shuffle]_output: 7c010204
(Unnamed Layer* 2491) [ElementWise]_output: 280dd87d
onnx::Expand_2172: 280dd87d
onnx::Div_2166: 280dd87d
onnx::Div_2174: 280dd87d
onnx::MatMul_2167: 0
onnx::Transpose_2175: 0
onnx::MatMul_2176: 0
onnx::Mul_2177: 0
(Unnamed Layer* 2517) [Shuffle]_output: 3e0da3e9
onnx::Add_2184: 0
input.188: 0
(Unnamed Layer* 2530) [Shuffle]_output: 0
(Unnamed Layer* 2531) [Softmax]_output: 0
input.192: 0
onnx::Transpose_2205: 0
onnx::Add_2213: 0
(Unnamed Layer* 2541) [Shuffle]_output: 3d5815c8
input.196: 0
onnx::Reshape_2226: 0
input.200: 0
onnx::Mul_2243: 0
(Unnamed Layer* 2550) [Shuffle]_output: 3b82913e
onnx::Add_2244: 0
(Unnamed Layer* 2553) [Shuffle]_output: 3bacfa4c
onnx::Add_2245: 0
onnx::MatMul_2246: 0
onnx::Add_2248: 0
(Unnamed Layer* 2560) [Shuffle]_output: 3c64ca86
onnx::Div_2249: 0
(Unnamed Layer* 2563) [Shuffle]_output: 3c3671d7
onnx::Erf_2251: 0
onnx::Add_2252: 0
(Unnamed Layer* 2567) [Shuffle]_output: 3c010204
onnx::Mul_2254: 0
onnx::Mul_2255: 0
(Unnamed Layer* 2571) [Shuffle]_output: 3b810204
input.204: 0
onnx::Add_2259: 0
(Unnamed Layer* 2577) [Shuffle]_output: 3d33966b
input.208: 0
onnx::Mul_2269: 0
(Unnamed Layer* 2581) [Shuffle]_output: 3b55328d
onnx::Add_2270: 0
(Unnamed Layer* 2584) [Shuffle]_output: 3b203322
onnx::Add_2271: 0
onnx::Shape_2272: 0
onnx::Slice_2286: 0
onnx::Concat_2290: 0
onnx::Concat_2294: 0
onnx::Slice_2295: 0
onnx::Concat_2299: 0
onnx::Concat_2303: 0
shifted_x.11: 0
onnx::Reshape_2335: 0
onnx::Add_2364: 0
(Unnamed Layer* 2738) [Shuffle]_output: 3d04f758
onnx::Reshape_2365: 0
onnx::Gather_2376: 0
q.27: 0
k.27: 0
onnx::MatMul_2382: 0
(Unnamed Layer* 2764) [ElementWise]_output: 0
(Unnamed Layer* 2765) [Reduce]_output: 0
onnx::Clip_2383: 0
(Unnamed Layer* 2768) [ElementWise]_output: 0
(Unnamed Layer* 2769) [Reduce]_output: 0
onnx::Clip_2391: 0
(Unnamed Layer* 2773) [Shuffle]_output: 280dd87d
(Unnamed Layer* 2774) [Shuffle]_output: 7c010204
(Unnamed Layer* 2775) [ElementWise]_output: 280dd87d
onnx::Expand_2387: 280dd87d
(Unnamed Layer* 2778) [Shuffle]_output: 280dd87d
(Unnamed Layer* 2779) [Shuffle]_output: 7c010204
(Unnamed Layer* 2780) [ElementWise]_output: 280dd87d
onnx::Expand_2395: 280dd87d
onnx::Div_2389: 280dd87d
onnx::Div_2397: 280dd87d
onnx::MatMul_2390: 0
onnx::Transpose_2398: 0
onnx::MatMul_2399: 0
onnx::Mul_2400: 0
(Unnamed Layer* 2806) [Shuffle]_output: 3df29936
onnx::Add_2407: 0
onnx::Reshape_2426: 0
onnx::Add_2439: 0
onnx::Reshape_2442: 0
(Unnamed Layer* 2822) [Shuffle]_output: 0
(Unnamed Layer* 2823) [Softmax]_output: 0
input.220: 0
onnx::Transpose_2452: 0
onnx::Add_2460: 0
(Unnamed Layer* 2833) [Shuffle]_output: 3d83b5e7
input.224: 0
onnx::Reshape_2473: 0
onnx::Slice_2475: 0
onnx::Concat_2479: 0
onnx::Concat_2483: 0
onnx::Slice_2484: 0
onnx::Concat_2488: 0
onnx::Concat_2492: 0
onnx::Reshape_2493: 0
input.228: 0
onnx::Mul_2508: 0
(Unnamed Layer* 2936) [Shuffle]_output: 3b54976c
onnx::Add_2509: 0
(Unnamed Layer* 2939) [Shuffle]_output: 3b9165aa
onnx::Add_2510: 0
onnx::MatMul_2511: 0
onnx::Add_2513: 0
(Unnamed Layer* 2946) [Shuffle]_output: 3c5a9322
onnx::Div_2514: 0
(Unnamed Layer* 2949) [Shuffle]_output: 3c3671d7
onnx::Erf_2516: 0
onnx::Add_2517: 0
(Unnamed Layer* 2953) [Shuffle]_output: 3c010204
onnx::Mul_2519: 0
onnx::Mul_2520: 0
(Unnamed Layer* 2957) [Shuffle]_output: 3b810204
input.232: 0
onnx::Add_2524: 0
(Unnamed Layer* 2963) [Shuffle]_output: 3d21ac11
input.236: 0
onnx::Mul_2534: 0
(Unnamed Layer* 2967) [Shuffle]_output: 3b69a2f2
onnx::Add_2535: 0
(Unnamed Layer* 2970) [Shuffle]_output: 3b4b6232
onnx::Add_2536: 0
onnx::Shape_2537: 0
onnx::Reshape_2582: 0
onnx::Add_2611: 0
(Unnamed Layer* 3030) [Shuffle]_output: 3cf3a374
onnx::Reshape_2612: 0
onnx::Gather_2623: 0
q.31: 0
k.31: 0
onnx::MatMul_2629: 0
(Unnamed Layer* 3047) [ElementWise]_output: 0
(Unnamed Layer* 3048) [Reduce]_output: 0
onnx::Clip_2630: 0
(Unnamed Layer* 3051) [ElementWise]_output: 0
(Unnamed Layer* 3052) [Reduce]_output: 0
onnx::Clip_2638: 0
(Unnamed Layer* 3056) [Shuffle]_output: 280dd87d
(Unnamed Layer* 3057) [Shuffle]_output: 7c010204
(Unnamed Layer* 3058) [ElementWise]_output: 280dd87d
onnx::Expand_2634: 280dd87d
(Unnamed Layer* 3061) [Shuffle]_output: 280dd87d
(Unnamed Layer* 3062) [Shuffle]_output: 7c010204
(Unnamed Layer* 3063) [ElementWise]_output: 280dd87d
onnx::Expand_2642: 280dd87d
onnx::Div_2636: 280dd87d
onnx::Div_2644: 280dd87d
onnx::MatMul_2637: 0
onnx::Transpose_2645: 0
onnx::MatMul_2646: 0
onnx::Mul_2647: 0
(Unnamed Layer* 3089) [Shuffle]_output: 3dd17ca4
onnx::Add_2654: 0
input.244: 0
(Unnamed Layer* 3102) [Shuffle]_output: 0
(Unnamed Layer* 3103) [Softmax]_output: 0
input.248: 0
onnx::Transpose_2675: 0
onnx::Add_2683: 0
(Unnamed Layer* 3113) [Shuffle]_output: 3d66408e
input.252: 0
onnx::Reshape_2696: 0
input.256: 0
onnx::Mul_2713: 0
(Unnamed Layer* 3122) [Shuffle]_output: 3bb2e496
onnx::Add_2714: 0
(Unnamed Layer* 3125) [Shuffle]_output: 3b96c5cb
onnx::Add_2715: 0
onnx::MatMul_2716: 0
onnx::Add_2718: 0
(Unnamed Layer* 3132) [Shuffle]_output: 3c4df025
onnx::Div_2719: 0
(Unnamed Layer* 3135) [Shuffle]_output: 3c3671d7
onnx::Erf_2721: 0
onnx::Add_2722: 0
(Unnamed Layer* 3139) [Shuffle]_output: 3c010204
onnx::Mul_2724: 0
onnx::Mul_2725: 0
(Unnamed Layer* 3143) [Shuffle]_output: 3b810204
input.260: 0
onnx::Add_2729: 0
(Unnamed Layer* 3149) [Shuffle]_output: 3d2cf460
input.264: 0
onnx::Mul_2739: 0
(Unnamed Layer* 3153) [Shuffle]_output: 3b7e78ca
onnx::Add_2740: 0
(Unnamed Layer* 3156) [Shuffle]_output: 3b963ba3
onnx::Add_2741: 0
onnx::Shape_2742: 0
onnx::Slice_2756: 0
onnx::Concat_2760: 0
onnx::Concat_2764: 0
onnx::Slice_2765: 0
onnx::Concat_2769: 0
onnx::Concat_2773: 0
shifted_x.15: 0
onnx::Reshape_2805: 0
onnx::Add_2834: 0
(Unnamed Layer* 3310) [Shuffle]_output: 3ca181fe
onnx::Reshape_2835: 0
onnx::Gather_2846: 0
q.35: 0
k.35: 0
onnx::MatMul_2852: 0
(Unnamed Layer* 3336) [ElementWise]_output: 0
(Unnamed Layer* 3337) [Reduce]_output: 0
onnx::Clip_2853: 0
(Unnamed Layer* 3340) [ElementWise]_output: 0
(Unnamed Layer* 3341) [Reduce]_output: 0
onnx::Clip_2861: 0
(Unnamed Layer* 3345) [Shuffle]_output: 280dd87d
(Unnamed Layer* 3346) [Shuffle]_output: 7c010204
(Unnamed Layer* 3347) [ElementWise]_output: 280dd87d
onnx::Expand_2857: 280dd87d
(Unnamed Layer* 3350) [Shuffle]_output: 280dd87d
(Unnamed Layer* 3351) [Shuffle]_output: 7c010204
(Unnamed Layer* 3352) [ElementWise]_output: 280dd87d
onnx::Expand_2865: 280dd87d
onnx::Div_2859: 280dd87d
onnx::Div_2867: 280dd87d
onnx::MatMul_2860: 0
onnx::Transpose_2868: 0
onnx::MatMul_2869: 0
onnx::Mul_2870: 0
(Unnamed Layer* 3378) [Shuffle]_output: 3e100d88
onnx::Add_2877: 0
onnx::Reshape_2896: 0
onnx::Add_2909: 0
onnx::Reshape_2912: 0
(Unnamed Layer* 3394) [Shuffle]_output: 0
(Unnamed Layer* 3395) [Softmax]_output: 0
input.276: 0
onnx::Transpose_2922: 0
onnx::Add_2930: 0
(Unnamed Layer* 3405) [Shuffle]_output: 3d7226cf
input.280: 0
onnx::Reshape_2943: 0
onnx::Slice_2945: 0
onnx::Concat_2949: 0
onnx::Concat_2953: 0
onnx::Slice_2954: 0
onnx::Concat_2958: 0
onnx::Concat_2962: 0
onnx::Reshape_2963: 0
input.284: 0
onnx::Mul_2978: 0
(Unnamed Layer* 3508) [Shuffle]_output: 3b8839fc
onnx::Add_2979: 0
(Unnamed Layer* 3511) [Shuffle]_output: 3b29a397
onnx::Add_2980: 0
onnx::MatMul_2981: 0
onnx::Add_2983: 0
(Unnamed Layer* 3518) [Shuffle]_output: 3c542bf6
onnx::Div_2984: 0
(Unnamed Layer* 3521) [Shuffle]_output: 3c3671d7
onnx::Erf_2986: 0
onnx::Add_2987: 0
(Unnamed Layer* 3525) [Shuffle]_output: 3c010204
onnx::Mul_2989: 0
onnx::Mul_2990: 0
(Unnamed Layer* 3529) [Shuffle]_output: 3b810204
input.288: 0
onnx::Add_2994: 0
(Unnamed Layer* 3535) [Shuffle]_output: 3d12ea72
input.292: 0
onnx::Mul_3004: 0
(Unnamed Layer* 3539) [Shuffle]_output: 3b8ba072
onnx::Add_3005: 0
(Unnamed Layer* 3542) [Shuffle]_output: 3b8a4cd3
onnx::Add_3006: 0
onnx::Shape_3007: 0
onnx::Reshape_3052: 0
onnx::Add_3081: 0
(Unnamed Layer* 3602) [Shuffle]_output: 3cd40dd0
onnx::Reshape_3082: 0
onnx::Gather_3093: 0
q.39: 0
k.39: 0
onnx::MatMul_3099: 0
(Unnamed Layer* 3619) [ElementWise]_output: 0
(Unnamed Layer* 3620) [Reduce]_output: 0
onnx::Clip_3100: 0
(Unnamed Layer* 3623) [ElementWise]_output: 0
(Unnamed Layer* 3624) [Reduce]_output: 0
onnx::Clip_3108: 0
(Unnamed Layer* 3628) [Shuffle]_output: 280dd87d
(Unnamed Layer* 3629) [Shuffle]_output: 7c010204
(Unnamed Layer* 3630) [ElementWise]_output: 280dd87d
onnx::Expand_3104: 280dd87d
(Unnamed Layer* 3633) [Shuffle]_output: 280dd87d
(Unnamed Layer* 3634) [Shuffle]_output: 7c010204
(Unnamed Layer* 3635) [ElementWise]_output: 280dd87d
onnx::Expand_3112: 280dd87d
onnx::Div_3106: 280dd87d
onnx::Div_3114: 280dd87d
onnx::MatMul_3107: 0
onnx::Transpose_3115: 0
onnx::MatMul_3116: 0
onnx::Mul_3117: 0
(Unnamed Layer* 3661) [Shuffle]_output: 3e099add
onnx::Add_3124: 0
input.300: 0
(Unnamed Layer* 3674) [Shuffle]_output: 0
(Unnamed Layer* 3675) [Softmax]_output: 0
input.304: 0
onnx::Transpose_3145: 0
onnx::Add_3153: 0
(Unnamed Layer* 3685) [Shuffle]_output: 3d6975db
input.308: 0
onnx::Reshape_3166: 0
input.312: 0
onnx::Mul_3183: 0
(Unnamed Layer* 3694) [Shuffle]_output: 3bd2e9a1
onnx::Add_3184: 0
(Unnamed Layer* 3697) [Shuffle]_output: 3ba4bc7b
onnx::Add_3185: 0
onnx::MatMul_3186: 0
onnx::Add_3188: 0
(Unnamed Layer* 3704) [Shuffle]_output: 3c40d8be
onnx::Div_3189: 0
(Unnamed Layer* 3707) [Shuffle]_output: 3c3671d7
onnx::Erf_3191: 0
onnx::Add_3192: 0
(Unnamed Layer* 3711) [Shuffle]_output: 3c010204
onnx::Mul_3194: 0
onnx::Mul_3195: 0
(Unnamed Layer* 3715) [Shuffle]_output: 3b810204
input.316: 0
onnx::Add_3199: 0
(Unnamed Layer* 3721) [Shuffle]_output: 3d4e16f9
input.320: 0
onnx::Mul_3209: 0
(Unnamed Layer* 3725) [Shuffle]_output: 3b91fd8e
onnx::Add_3210: 0
(Unnamed Layer* 3728) [Shuffle]_output: 3b8f31c9
onnx::Add_3211: 0
onnx::Shape_3212: 0
onnx::Slice_3226: 0
onnx::Concat_3230: 0
onnx::Concat_3234: 0
onnx::Slice_3235: 0
onnx::Concat_3239: 0
onnx::Concat_3243: 0
shifted_x.19: 0
onnx::Reshape_3275: 0
onnx::Add_3304: 0
(Unnamed Layer* 3882) [Shuffle]_output: 3d041992
onnx::Reshape_3305: 0
onnx::Gather_3316: 0
q.43: 0
k.43: 0
onnx::MatMul_3322: 0
(Unnamed Layer* 3908) [ElementWise]_output: 0
(Unnamed Layer* 3909) [Reduce]_output: 0
onnx::Clip_3323: 0
(Unnamed Layer* 3912) [ElementWise]_output: 0
(Unnamed Layer* 3913) [Reduce]_output: 0
onnx::Clip_3331: 0
(Unnamed Layer* 3917) [Shuffle]_output: 280dd87d
(Unnamed Layer* 3918) [Shuffle]_output: 7c010204
(Unnamed Layer* 3919) [ElementWise]_output: 280dd87d
onnx::Expand_3327: 280dd87d
(Unnamed Layer* 3922) [Shuffle]_output: 280dd87d
(Unnamed Layer* 3923) [Shuffle]_output: 7c010204
(Unnamed Layer* 3924) [ElementWise]_output: 280dd87d
onnx::Expand_3335: 280dd87d
onnx::Div_3329: 280dd87d
onnx::Div_3337: 280dd87d
onnx::MatMul_3330: 0
onnx::Transpose_3338: 0
onnx::MatMul_3339: 0
onnx::Mul_3340: 0
(Unnamed Layer* 3950) [Shuffle]_output: 3e03049f
onnx::Add_3347: 0
onnx::Reshape_3366: 0
onnx::Add_3379: 0
onnx::Reshape_3382: 0
(Unnamed Layer* 3966) [Shuffle]_output: 0
(Unnamed Layer* 3967) [Softmax]_output: 0
input.332: 0
onnx::Transpose_3392: 0
onnx::Add_3400: 0
(Unnamed Layer* 3977) [Shuffle]_output: 3d908f33
input.336: 0
onnx::Reshape_3413: 0
onnx::Slice_3415: 0
onnx::Concat_3419: 0
onnx::Concat_3423: 0
onnx::Slice_3424: 0
onnx::Concat_3428: 0
onnx::Concat_3432: 0
onnx::Reshape_3433: 0
input.340: 0
onnx::Mul_3448: 0
(Unnamed Layer* 4080) [Shuffle]_output: 3ba9b35b
onnx::Add_3449: 0
(Unnamed Layer* 4083) [Shuffle]_output: 3b91b838
onnx::Add_3450: 0
onnx::MatMul_3451: 0
onnx::Add_3453: 0
(Unnamed Layer* 4090) [Shuffle]_output: 3c4263dd
onnx::Div_3454: 0
(Unnamed Layer* 4093) [Shuffle]_output: 3c3671d7
onnx::Erf_3456: 0
onnx::Add_3457: 0
(Unnamed Layer* 4097) [Shuffle]_output: 3c010204
onnx::Mul_3459: 0
onnx::Mul_3460: 0
(Unnamed Layer* 4101) [Shuffle]_output: 3b810204
input.344: 0
onnx::Add_3464: 0
(Unnamed Layer* 4107) [Shuffle]_output: 3d2fe6a1
input.348: 0
onnx::Mul_3474: 0
(Unnamed Layer* 4111) [Shuffle]_output: 3ba597f0
onnx::Add_3475: 0
(Unnamed Layer* 4114) [Shuffle]_output: 3b9c25d9
onnx::Add_3476: 0
onnx::Shape_3477: 0
onnx::Reshape_3522: 0
onnx::Add_3551: 0
(Unnamed Layer* 4174) [Shuffle]_output: 3cbb07fc
onnx::Reshape_3552: 0
onnx::Gather_3563: 0
q.47: 0
k.47: 0
onnx::MatMul_3569: 0
(Unnamed Layer* 4191) [ElementWise]_output: 0
(Unnamed Layer* 4192) [Reduce]_output: 0
onnx::Clip_3570: 0
(Unnamed Layer* 4195) [ElementWise]_output: 0
(Unnamed Layer* 4196) [Reduce]_output: 0
onnx::Clip_3578: 0
(Unnamed Layer* 4200) [Shuffle]_output: 280dd87d
(Unnamed Layer* 4201) [Shuffle]_output: 7c010204
(Unnamed Layer* 4202) [ElementWise]_output: 280dd87d
onnx::Expand_3574: 280dd87d
(Unnamed Layer* 4205) [Shuffle]_output: 280dd87d
(Unnamed Layer* 4206) [Shuffle]_output: 7c010204
(Unnamed Layer* 4207) [ElementWise]_output: 280dd87d
onnx::Expand_3582: 280dd87d
onnx::Div_3576: 280dd87d
onnx::Div_3584: 280dd87d
onnx::MatMul_3577: 0
onnx::Transpose_3585: 0
onnx::MatMul_3586: 0
onnx::Mul_3587: 0
(Unnamed Layer* 4233) [Shuffle]_output: 3e1315be
onnx::Add_3594: 0
input.356: 0
(Unnamed Layer* 4246) [Shuffle]_output: 0
(Unnamed Layer* 4247) [Softmax]_output: 0
input.360: 0
onnx::Transpose_3615: 0
onnx::Add_3623: 0
(Unnamed Layer* 4257) [Shuffle]_output: 3d7e0d16
input.364: 0
onnx::Reshape_3636: 0
input.368: 0
onnx::Mul_3653: 0
(Unnamed Layer* 4266) [Shuffle]_output: 3c03663c
onnx::Add_3654: 0
(Unnamed Layer* 4269) [Shuffle]_output: 3bc5f956
onnx::Add_3655: 0
onnx::MatMul_3656: 0
onnx::Add_3658: 0
(Unnamed Layer* 4276) [Shuffle]_output: 3c470385
onnx::Div_3659: 0
(Unnamed Layer* 4279) [Shuffle]_output: 3c3671d7
onnx::Erf_3661: 0
onnx::Add_3662: 0
(Unnamed Layer* 4283) [Shuffle]_output: 3c010204
onnx::Mul_3664: 0
onnx::Mul_3665: 0
(Unnamed Layer* 4287) [Shuffle]_output: 3b810204
input.372: 0
onnx::Add_3669: 0
(Unnamed Layer* 4293) [Shuffle]_output: 3d3b6f04
input.376: 0
onnx::Mul_3679: 0
(Unnamed Layer* 4297) [Shuffle]_output: 3ba66c93
onnx::Add_3680: 0
(Unnamed Layer* 4300) [Shuffle]_output: 3b53609b
onnx::Add_3681: 0
onnx::Shape_3682: 0
onnx::Slice_3696: 0
onnx::Concat_3700: 0
onnx::Concat_3704: 0
onnx::Slice_3705: 0
onnx::Concat_3709: 0
onnx::Concat_3713: 0
shifted_x.23: 0
onnx::Reshape_3745: 0
onnx::Add_3774: 0
(Unnamed Layer* 4454) [Shuffle]_output: 3c915b43
onnx::Reshape_3775: 0
onnx::Gather_3786: 0
q.51: 0
k.51: 0
onnx::MatMul_3792: 0
(Unnamed Layer* 4480) [ElementWise]_output: 0
(Unnamed Layer* 4481) [Reduce]_output: 0
onnx::Clip_3793: 0
(Unnamed Layer* 4484) [ElementWise]_output: 0
(Unnamed Layer* 4485) [Reduce]_output: 0
onnx::Clip_3801: 0
(Unnamed Layer* 4489) [Shuffle]_output: 280dd87d
(Unnamed Layer* 4490) [Shuffle]_output: 7c010204
(Unnamed Layer* 4491) [ElementWise]_output: 280dd87d
onnx::Expand_3797: 280dd87d
(Unnamed Layer* 4494) [Shuffle]_output: 280dd87d
(Unnamed Layer* 4495) [Shuffle]_output: 7c010204
(Unnamed Layer* 4496) [ElementWise]_output: 280dd87d
onnx::Expand_3805: 280dd87d
onnx::Div_3799: 280dd87d
onnx::Div_3807: 280dd87d
onnx::MatMul_3800: 0
onnx::Transpose_3808: 0
onnx::MatMul_3809: 0
onnx::Mul_3810: 0
(Unnamed Layer* 4522) [Shuffle]_output: 3e193284
onnx::Add_3817: 0
onnx::Reshape_3836: 0
onnx::Add_3849: 0
onnx::Reshape_3852: 0
(Unnamed Layer* 4538) [Shuffle]_output: 0
(Unnamed Layer* 4539) [Softmax]_output: 0
input.388: 0
onnx::Transpose_3862: 0
onnx::Add_3870: 0
(Unnamed Layer* 4549) [Shuffle]_output: 3d89b723
input.392: 0
onnx::Reshape_3883: 0
onnx::Slice_3885: 0
onnx::Concat_3889: 0
onnx::Concat_3893: 0
onnx::Slice_3894: 0
onnx::Concat_3898: 0
onnx::Concat_3902: 0
onnx::Reshape_3903: 0
input.396: 0
onnx::Mul_3918: 0
(Unnamed Layer* 4652) [Shuffle]_output: 3bc553af
onnx::Add_3919: 0
(Unnamed Layer* 4655) [Shuffle]_output: 3bb70f7f
onnx::Add_3920: 0
onnx::MatMul_3921: 0
onnx::Add_3923: 0
(Unnamed Layer* 4662) [Shuffle]_output: 3c41879e
onnx::Div_3924: 0
(Unnamed Layer* 4665) [Shuffle]_output: 3c3671d7
onnx::Erf_3926: 0
onnx::Add_3927: 0
(Unnamed Layer* 4669) [Shuffle]_output: 3c010204
onnx::Mul_3929: 0
onnx::Mul_3930: 0
(Unnamed Layer* 4673) [Shuffle]_output: 3b810204
input.400: 0
onnx::Add_3934: 0
(Unnamed Layer* 4679) [Shuffle]_output: 3d44c14a
input.404: 0
onnx::Mul_3944: 0
(Unnamed Layer* 4683) [Shuffle]_output: 3bc20ad6
onnx::Add_3945: 0
(Unnamed Layer* 4686) [Shuffle]_output: 3ba2f713
onnx::Add_3946: 0
onnx::Shape_3947: 0
onnx::Reshape_3992: 0
onnx::Add_4021: 0
(Unnamed Layer* 4746) [Shuffle]_output: 3ca47254
onnx::Reshape_4022: 0
onnx::Gather_4033: 0
q.55: 0
k.55: 0
onnx::MatMul_4039: 0
(Unnamed Layer* 4763) [ElementWise]_output: 0
(Unnamed Layer* 4764) [Reduce]_output: 0
onnx::Clip_4040: 0
(Unnamed Layer* 4767) [ElementWise]_output: 0
(Unnamed Layer* 4768) [Reduce]_output: 0
onnx::Clip_4048: 0
(Unnamed Layer* 4772) [Shuffle]_output: 280dd87d
(Unnamed Layer* 4773) [Shuffle]_output: 7c010204
(Unnamed Layer* 4774) [ElementWise]_output: 280dd87d
onnx::Expand_4044: 280dd87d
(Unnamed Layer* 4777) [Shuffle]_output: 280dd87d
(Unnamed Layer* 4778) [Shuffle]_output: 7c010204
(Unnamed Layer* 4779) [ElementWise]_output: 280dd87d
onnx::Expand_4052: 280dd87d
onnx::Div_4046: 280dd87d
onnx::Div_4054: 280dd87d
onnx::MatMul_4047: 0
onnx::Transpose_4055: 0
onnx::MatMul_4056: 0
onnx::Mul_4057: 0
(Unnamed Layer* 4805) [Shuffle]_output: 3e289e67
onnx::Add_4064: 0
input.412: 0
(Unnamed Layer* 4818) [Shuffle]_output: 0
(Unnamed Layer* 4819) [Softmax]_output: 0
input.416: 0
onnx::Transpose_4085: 0
onnx::Add_4093: 0
(Unnamed Layer* 4829) [Shuffle]_output: 3d8572f3
input.420: 0
onnx::Reshape_4106: 0
input.424: 0
onnx::Mul_4123: 0
(Unnamed Layer* 4838) [Shuffle]_output: 3c09af06
onnx::Add_4124: 0
(Unnamed Layer* 4841) [Shuffle]_output: 3b590e0a
onnx::Add_4125: 0
onnx::MatMul_4126: 0
onnx::Add_4128: 0
(Unnamed Layer* 4848) [Shuffle]_output: 3c47344e
onnx::Div_4129: 0
(Unnamed Layer* 4851) [Shuffle]_output: 3c3671d7
onnx::Erf_4131: 0
onnx::Add_4132: 0
(Unnamed Layer* 4855) [Shuffle]_output: 3c010204
onnx::Mul_4134: 0
onnx::Mul_4135: 0
(Unnamed Layer* 4859) [Shuffle]_output: 3b810204
input.428: 0
onnx::Add_4139: 0
(Unnamed Layer* 4865) [Shuffle]_output: 3d41ac65
input.432: 0
onnx::Mul_4149: 0
(Unnamed Layer* 4869) [Shuffle]_output: 3bbff87c
onnx::Add_4150: 0
(Unnamed Layer* 4872) [Shuffle]_output: 3bacd837
onnx::Add_4151: 0
onnx::Shape_4152: 0
onnx::Slice_4166: 0
onnx::Concat_4170: 0
onnx::Concat_4174: 0
onnx::Slice_4175: 0
onnx::Concat_4179: 0
onnx::Concat_4183: 0
shifted_x.27: 0
onnx::Reshape_4215: 0
onnx::Add_4244: 0
(Unnamed Layer* 5026) [Shuffle]_output: 3d0496cc
onnx::Reshape_4245: 0
onnx::Gather_4256: 0
q.59: 0
k.59: 0
onnx::MatMul_4262: 0
(Unnamed Layer* 5052) [ElementWise]_output: 0
(Unnamed Layer* 5053) [Reduce]_output: 0
onnx::Clip_4263: 0
(Unnamed Layer* 5056) [ElementWise]_output: 0
(Unnamed Layer* 5057) [Reduce]_output: 0
onnx::Clip_4271: 0
(Unnamed Layer* 5061) [Shuffle]_output: 280dd87d
(Unnamed Layer* 5062) [Shuffle]_output: 7c010204
(Unnamed Layer* 5063) [ElementWise]_output: 280dd87d
onnx::Expand_4267: 280dd87d
(Unnamed Layer* 5066) [Shuffle]_output: 280dd87d
(Unnamed Layer* 5067) [Shuffle]_output: 7c010204
(Unnamed Layer* 5068) [ElementWise]_output: 280dd87d
onnx::Expand_4275: 280dd87d
onnx::Div_4269: 280dd87d
onnx::Div_4277: 280dd87d
onnx::MatMul_4270: 0
onnx::Transpose_4278: 0
onnx::MatMul_4279: 0
onnx::Mul_4280: 0
(Unnamed Layer* 5094) [Shuffle]_output: 3e2aa988
onnx::Add_4287: 0
onnx::Reshape_4306: 0
onnx::Add_4319: 0
onnx::Reshape_4322: 0
(Unnamed Layer* 5110) [Shuffle]_output: 0
(Unnamed Layer* 5111) [Softmax]_output: 0
input.444: 0
onnx::Transpose_4332: 0
onnx::Add_4340: 0
(Unnamed Layer* 5121) [Shuffle]_output: 3daf31c9
input.448: 0
onnx::Reshape_4353: 0
onnx::Slice_4355: 0
onnx::Concat_4359: 0
onnx::Concat_4363: 0
onnx::Slice_4364: 0
onnx::Concat_4368: 0
onnx::Concat_4372: 0
onnx::Reshape_4373: 0
input.452: 0
onnx::Mul_4388: 0
(Unnamed Layer* 5224) [Shuffle]_output: 3bb36015
onnx::Add_4389: 0
(Unnamed Layer* 5227) [Shuffle]_output: 3b518106
onnx::Add_4390: 0
onnx::MatMul_4391: 0
onnx::Add_4393: 0
(Unnamed Layer* 5234) [Shuffle]_output: 3c293572
onnx::Div_4394: 0
(Unnamed Layer* 5237) [Shuffle]_output: 3c3671d7
onnx::Erf_4396: 0
onnx::Add_4397: 0
(Unnamed Layer* 5241) [Shuffle]_output: 3c010204
onnx::Mul_4399: 0
onnx::Mul_4400: 0
(Unnamed Layer* 5245) [Shuffle]_output: 3b810204
input.456: 0
onnx::Add_4404: 0
(Unnamed Layer* 5251) [Shuffle]_output: 3d193c11
input.460: 0
onnx::Mul_4414: 0
(Unnamed Layer* 5255) [Shuffle]_output: 3bea6957
onnx::Add_4415: 0
(Unnamed Layer* 5258) [Shuffle]_output: 3bc0ae15
onnx::Add_4416: 0
onnx::Shape_4417: 0
onnx::Reshape_4462: 0
onnx::Add_4491: 0
(Unnamed Layer* 5318) [Shuffle]_output: 3c9f6520
onnx::Reshape_4492: 0
onnx::Gather_4503: 0
q.63: 0
k.63: 0
onnx::MatMul_4509: 0
(Unnamed Layer* 5335) [ElementWise]_output: 0
(Unnamed Layer* 5336) [Reduce]_output: 0
onnx::Clip_4510: 0
(Unnamed Layer* 5339) [ElementWise]_output: 0
(Unnamed Layer* 5340) [Reduce]_output: 0
onnx::Clip_4518: 0
(Unnamed Layer* 5344) [Shuffle]_output: 280dd87d
(Unnamed Layer* 5345) [Shuffle]_output: 7c010204
(Unnamed Layer* 5346) [ElementWise]_output: 280dd87d
onnx::Expand_4514: 280dd87d
(Unnamed Layer* 5349) [Shuffle]_output: 280dd87d
(Unnamed Layer* 5350) [Shuffle]_output: 7c010204
(Unnamed Layer* 5351) [ElementWise]_output: 280dd87d
onnx::Expand_4522: 280dd87d
onnx::Div_4516: 280dd87d
onnx::Div_4524: 280dd87d
onnx::MatMul_4517: 0
onnx::Transpose_4525: 0
onnx::MatMul_4526: 0
onnx::Mul_4527: 0
(Unnamed Layer* 5377) [Shuffle]_output: 3e23a433
onnx::Add_4534: 0
input.468: 0
(Unnamed Layer* 5390) [Shuffle]_output: 0
(Unnamed Layer* 5391) [Softmax]_output: 0
input.472: 0
onnx::Transpose_4555: 0
onnx::Add_4563: 0
(Unnamed Layer* 5401) [Shuffle]_output: 3d9b23b3
input.476: 0
onnx::Reshape_4576: 0
input.480: 0
onnx::Mul_4593: 0
(Unnamed Layer* 5410) [Shuffle]_output: 3bf0f499
onnx::Add_4594: 0
(Unnamed Layer* 5413) [Shuffle]_output: 3bc449e4
onnx::Add_4595: 0
onnx::MatMul_4596: 0
onnx::Add_4598: 0
(Unnamed Layer* 5420) [Shuffle]_output: 3c2a68cb
onnx::Div_4599: 0
(Unnamed Layer* 5423) [Shuffle]_output: 3c3671d7
onnx::Erf_4601: 0
onnx::Add_4602: 0
(Unnamed Layer* 5427) [Shuffle]_output: 3c010204
onnx::Mul_4604: 0
onnx::Mul_4605: 0
(Unnamed Layer* 5431) [Shuffle]_output: 3b810204
input.484: 0
onnx::Add_4609: 0
(Unnamed Layer* 5437) [Shuffle]_output: 3d2844b7
input.488: 0
onnx::Mul_4619: 0
(Unnamed Layer* 5441) [Shuffle]_output: 3c02c025
onnx::Add_4620: 0
(Unnamed Layer* 5444) [Shuffle]_output: 3bfd4034
onnx::Add_4621: 0
onnx::Shape_4622: 0
onnx::Slice_4636: 0
onnx::Concat_4640: 0
onnx::Concat_4644: 0
onnx::Slice_4645: 0
onnx::Concat_4649: 0
onnx::Concat_4653: 0
shifted_x.31: 0
onnx::Reshape_4685: 0
onnx::Add_4714: 0
(Unnamed Layer* 5598) [Shuffle]_output: 3c82e798
onnx::Reshape_4715: 0
onnx::Gather_4726: 0
q.67: 0
k.67: 0
onnx::MatMul_4732: 0
(Unnamed Layer* 5624) [ElementWise]_output: 0
(Unnamed Layer* 5625) [Reduce]_output: 0
onnx::Clip_4733: 0
(Unnamed Layer* 5628) [ElementWise]_output: 0
(Unnamed Layer* 5629) [Reduce]_output: 0
onnx::Clip_4741: 0
(Unnamed Layer* 5633) [Shuffle]_output: 280dd87d
(Unnamed Layer* 5634) [Shuffle]_output: 7c010204
(Unnamed Layer* 5635) [ElementWise]_output: 280dd87d
onnx::Expand_4737: 280dd87d
(Unnamed Layer* 5638) [Shuffle]_output: 280dd87d
(Unnamed Layer* 5639) [Shuffle]_output: 7c010204
(Unnamed Layer* 5640) [ElementWise]_output: 280dd87d
onnx::Expand_4745: 280dd87d
onnx::Div_4739: 280dd87d
onnx::Div_4747: 280dd87d
onnx::MatMul_4740: 0
onnx::Transpose_4748: 0
onnx::MatMul_4749: 0
onnx::Mul_4750: 0
(Unnamed Layer* 5666) [Shuffle]_output: 3e2adb82
onnx::Add_4757: 0
onnx::Reshape_4776: 0
onnx::Add_4789: 0
onnx::Reshape_4792: 0
(Unnamed Layer* 5682) [Shuffle]_output: 0
(Unnamed Layer* 5683) [Softmax]_output: 0
input.500: 0
onnx::Transpose_4802: 0
onnx::Add_4810: 0
(Unnamed Layer* 5693) [Shuffle]_output: 3dc134ce
input.504: 0
onnx::Reshape_4823: 0
onnx::Slice_4825: 0
onnx::Concat_4829: 0
onnx::Concat_4833: 0
onnx::Slice_4834: 0
onnx::Concat_4838: 0
onnx::Concat_4842: 0
onnx::Reshape_4843: 0
input.508: 0
onnx::Mul_4858: 0
(Unnamed Layer* 5796) [Shuffle]_output: 3bab1df5
onnx::Add_4859: 0
(Unnamed Layer* 5799) [Shuffle]_output: 3ba08d5a
onnx::Add_4860: 0
onnx::MatMul_4861: 0
onnx::Add_4863: 0
(Unnamed Layer* 5806) [Shuffle]_output: 3c3249f1
onnx::Div_4864: 0
(Unnamed Layer* 5809) [Shuffle]_output: 3c3671d7
onnx::Erf_4866: 0
onnx::Add_4867: 0
(Unnamed Layer* 5813) [Shuffle]_output: 3c010204
onnx::Mul_4869: 0
onnx::Mul_4870: 0
(Unnamed Layer* 5817) [Shuffle]_output: 3b810204
input.512: 0
onnx::Add_4874: 0
(Unnamed Layer* 5823) [Shuffle]_output: 3d0f64ca
input.516: 0
onnx::Mul_4884: 0
(Unnamed Layer* 5827) [Shuffle]_output: 3c1a86e9
onnx::Add_4885: 0
(Unnamed Layer* 5830) [Shuffle]_output: 3c0fad62
onnx::Add_4886: 0
onnx::Shape_4887: 0
onnx::Reshape_4932: 0
onnx::Add_4961: 0
(Unnamed Layer* 5890) [Shuffle]_output: 3c83f8be
onnx::Reshape_4962: 0
onnx::Gather_4973: 0
q.71: 0
k.71: 0
onnx::MatMul_4979: 0
(Unnamed Layer* 5907) [ElementWise]_output: 0
(Unnamed Layer* 5908) [Reduce]_output: 0
onnx::Clip_4980: 0
(Unnamed Layer* 5911) [ElementWise]_output: 0
(Unnamed Layer* 5912) [Reduce]_output: 0
onnx::Clip_4988: 0
(Unnamed Layer* 5916) [Shuffle]_output: 280dd87d
(Unnamed Layer* 5917) [Shuffle]_output: 7c010204
(Unnamed Layer* 5918) [ElementWise]_output: 280dd87d
onnx::Expand_4984: 280dd87d
(Unnamed Layer* 5921) [Shuffle]_output: 280dd87d
(Unnamed Layer* 5922) [Shuffle]_output: 7c010204
(Unnamed Layer* 5923) [ElementWise]_output: 280dd87d
onnx::Expand_4992: 280dd87d
onnx::Div_4986: 280dd87d
onnx::Div_4994: 280dd87d
onnx::MatMul_4987: 0
onnx::Transpose_4995: 0
onnx::MatMul_4996: 0
onnx::Mul_4997: 0
(Unnamed Layer* 5949) [Shuffle]_output: 3e27a2a9
onnx::Add_5004: 0
input.524: 0
(Unnamed Layer* 5962) [Shuffle]_output: 0
(Unnamed Layer* 5963) [Softmax]_output: 0
input.528: 0
onnx::Transpose_5025: 0
onnx::Add_5033: 0
(Unnamed Layer* 5973) [Shuffle]_output: 3db60da2
input.532: 0
onnx::Reshape_5046: 0
input.536: 0
onnx::Mul_5063: 0
(Unnamed Layer* 5982) [Shuffle]_output: 3bc75cb4
onnx::Add_5064: 0
(Unnamed Layer* 5985) [Shuffle]_output: 3bc75f57
onnx::Add_5065: 0
onnx::MatMul_5066: 0
onnx::Add_5068: 0
(Unnamed Layer* 5992) [Shuffle]_output: 3c2c2068
onnx::Div_5069: 0
(Unnamed Layer* 5995) [Shuffle]_output: 3c3671d7
onnx::Erf_5071: 0
onnx::Add_5072: 0
(Unnamed Layer* 5999) [Shuffle]_output: 3c010204
onnx::Mul_5074: 0
onnx::Mul_5075: 0
(Unnamed Layer* 6003) [Shuffle]_output: 3b810204
input.540: 0
onnx::Add_5079: 0
(Unnamed Layer* 6009) [Shuffle]_output: 3d0df393
input.544: 0
onnx::Mul_5089: 0
(Unnamed Layer* 6013) [Shuffle]_output: 3c2b8e4a
onnx::Add_5090: 0
(Unnamed Layer* 6016) [Shuffle]_output: 3c3ec775
onnx::Add_5091: 0
onnx::Shape_5092: 0
onnx::Slice_5106: 0
onnx::Concat_5110: 0
onnx::Concat_5114: 0
onnx::Slice_5115: 0
onnx::Concat_5119: 0
onnx::Concat_5123: 0
shifted_x.35: 0
onnx::Reshape_5155: 0
onnx::Add_5184: 0
(Unnamed Layer* 6170) [Shuffle]_output: 3c8f34ad
onnx::Reshape_5185: 0
onnx::Gather_5196: 0
q.75: 0
k.75: 0
onnx::MatMul_5202: 0
(Unnamed Layer* 6196) [ElementWise]_output: 0
(Unnamed Layer* 6197) [Reduce]_output: 0
onnx::Clip_5203: 0
(Unnamed Layer* 6200) [ElementWise]_output: 0
(Unnamed Layer* 6201) [Reduce]_output: 0
onnx::Clip_5211: 0
(Unnamed Layer* 6205) [Shuffle]_output: 280dd87d
(Unnamed Layer* 6206) [Shuffle]_output: 7c010204
(Unnamed Layer* 6207) [ElementWise]_output: 280dd87d
onnx::Expand_5207: 280dd87d
(Unnamed Layer* 6210) [Shuffle]_output: 280dd87d
(Unnamed Layer* 6211) [Shuffle]_output: 7c010204
(Unnamed Layer* 6212) [ElementWise]_output: 280dd87d
onnx::Expand_5215: 280dd87d
onnx::Div_5209: 280dd87d
onnx::Div_5217: 280dd87d
onnx::MatMul_5210: 0
onnx::Transpose_5218: 0
onnx::MatMul_5219: 0
onnx::Mul_5220: 0
(Unnamed Layer* 6238) [Shuffle]_output: 3e3348f3
onnx::Add_5227: 0
onnx::Reshape_5246: 0
onnx::Add_5259: 0
onnx::Reshape_5262: 0
(Unnamed Layer* 6254) [Shuffle]_output: 0
(Unnamed Layer* 6255) [Softmax]_output: 0
input.556: 0
onnx::Transpose_5272: 0
onnx::Add_5280: 0
(Unnamed Layer* 6265) [Shuffle]_output: 3db7387d
input.560: 0
onnx::Reshape_5293: 0
onnx::Slice_5295: 0
onnx::Concat_5299: 0
onnx::Concat_5303: 0
onnx::Slice_5304: 0
onnx::Concat_5308: 0
onnx::Concat_5312: 0
onnx::Reshape_5313: 0
input.564: 0
onnx::Mul_5328: 0
(Unnamed Layer* 6368) [Shuffle]_output: 3bdeaca0
onnx::Add_5329: 0
(Unnamed Layer* 6371) [Shuffle]_output: 3bc07fcb
onnx::Add_5330: 0
onnx::MatMul_5331: 0
onnx::Add_5333: 0
(Unnamed Layer* 6378) [Shuffle]_output: 3c47a36b
onnx::Div_5334: 0
(Unnamed Layer* 6381) [Shuffle]_output: 3c3671d7
onnx::Erf_5336: 0
onnx::Add_5337: 0
(Unnamed Layer* 6385) [Shuffle]_output: 3c010204
onnx::Mul_5339: 0
onnx::Mul_5340: 0
(Unnamed Layer* 6389) [Shuffle]_output: 3b810204
input.568: 0
onnx::Add_5344: 0
(Unnamed Layer* 6395) [Shuffle]_output: 3cf5593a
input.572: 0
onnx::Mul_5354: 0
(Unnamed Layer* 6399) [Shuffle]_output: 3c3e9621
onnx::Add_5355: 0
(Unnamed Layer* 6402) [Shuffle]_output: 3c936ded
onnx::Add_5356: 0
onnx::Shape_5357: 0
onnx::Reshape_5402: 0
onnx::Add_5431: 0
(Unnamed Layer* 6462) [Shuffle]_output: 3c873194
onnx::Reshape_5432: 0
onnx::Gather_5443: 0
q.79: 0
k.79: 0
onnx::MatMul_5449: 0
(Unnamed Layer* 6479) [ElementWise]_output: 0
(Unnamed Layer* 6480) [Reduce]_output: 0
onnx::Clip_5450: 0
(Unnamed Layer* 6483) [ElementWise]_output: 0
(Unnamed Layer* 6484) [Reduce]_output: 0
onnx::Clip_5458: 0
(Unnamed Layer* 6488) [Shuffle]_output: 280dd87d
(Unnamed Layer* 6489) [Shuffle]_output: 7c010204
(Unnamed Layer* 6490) [ElementWise]_output: 280dd87d
onnx::Expand_5454: 280dd87d
(Unnamed Layer* 6493) [Shuffle]_output: 280dd87d
(Unnamed Layer* 6494) [Shuffle]_output: 7c010204
(Unnamed Layer* 6495) [ElementWise]_output: 280dd87d
onnx::Expand_5462: 280dd87d
onnx::Div_5456: 280dd87d
onnx::Div_5464: 280dd87d
onnx::MatMul_5457: 0
onnx::Transpose_5465: 0
onnx::MatMul_5466: 0
onnx::Mul_5467: 0
(Unnamed Layer* 6521) [Shuffle]_output: 3e2906f3
onnx::Add_5474: 0
input.580: 0
(Unnamed Layer* 6534) [Shuffle]_output: 0
(Unnamed Layer* 6535) [Softmax]_output: 0
input.584: 0
onnx::Transpose_5495: 0
onnx::Add_5503: 0
(Unnamed Layer* 6545) [Shuffle]_output: 3db7af4a
input.588: 0
onnx::Reshape_5516: 0
input.592: 0
onnx::Mul_5533: 0
(Unnamed Layer* 6554) [Shuffle]_output: 3c1196af
onnx::Add_5534: 0
(Unnamed Layer* 6557) [Shuffle]_output: 3be8392a
onnx::Add_5535: 0
onnx::MatMul_5536: 0
onnx::Add_5538: 0
(Unnamed Layer* 6564) [Shuffle]_output: 3c571ddb
onnx::Div_5539: 0
(Unnamed Layer* 6567) [Shuffle]_output: 3c3671d7
onnx::Erf_5541: 0
onnx::Add_5542: 0
(Unnamed Layer* 6571) [Shuffle]_output: 3c010204
onnx::Mul_5544: 0
onnx::Mul_5545: 0
(Unnamed Layer* 6575) [Shuffle]_output: 3b810204
input.596: 0
onnx::Add_5549: 0
(Unnamed Layer* 6581) [Shuffle]_output: 3cbad1b0
input.600: 0
onnx::Mul_5559: 0
(Unnamed Layer* 6585) [Shuffle]_output: 3c821918
onnx::Add_5560: 0
(Unnamed Layer* 6588) [Shuffle]_output: 3ccd924c
onnx::Add_5561: 0
onnx::Shape_5562: 0
onnx::Slice_5576: 0
onnx::Concat_5580: 0
onnx::Concat_5584: 0
onnx::Slice_5585: 0
onnx::Concat_5589: 0
onnx::Concat_5593: 0
shifted_x.39: 0
onnx::Reshape_5625: 0
onnx::Add_5654: 0
(Unnamed Layer* 6742) [Shuffle]_output: 3c948745
onnx::Reshape_5655: 0
onnx::Gather_5666: 0
q.83: 0
k.83: 0
onnx::MatMul_5672: 0
(Unnamed Layer* 6768) [ElementWise]_output: 0
(Unnamed Layer* 6769) [Reduce]_output: 0
onnx::Clip_5673: 0
(Unnamed Layer* 6772) [ElementWise]_output: 0
(Unnamed Layer* 6773) [Reduce]_output: 0
onnx::Clip_5681: 0
(Unnamed Layer* 6777) [Shuffle]_output: 280dd87d
(Unnamed Layer* 6778) [Shuffle]_output: 7c010204
(Unnamed Layer* 6779) [ElementWise]_output: 280dd87d
onnx::Expand_5677: 280dd87d
(Unnamed Layer* 6782) [Shuffle]_output: 280dd87d
(Unnamed Layer* 6783) [Shuffle]_output: 7c010204
(Unnamed Layer* 6784) [ElementWise]_output: 280dd87d
onnx::Expand_5685: 280dd87d
onnx::Div_5679: 280dd87d
onnx::Div_5687: 280dd87d
onnx::MatMul_5680: 0
onnx::Transpose_5688: 0
onnx::MatMul_5689: 0
onnx::Mul_5690: 0
(Unnamed Layer* 6810) [Shuffle]_output: 3e4bf6f9
onnx::Add_5697: 0
onnx::Reshape_5716: 0
onnx::Add_5729: 0
onnx::Reshape_5732: 0
(Unnamed Layer* 6826) [Shuffle]_output: 0
(Unnamed Layer* 6827) [Softmax]_output: 0
input.612: 0
onnx::Transpose_5742: 0
onnx::Add_5750: 0
(Unnamed Layer* 6837) [Shuffle]_output: 3dc0f24d
input.616: 0
onnx::Reshape_5763: 0
onnx::Slice_5765: 0
onnx::Concat_5769: 0
onnx::Concat_5773: 0
onnx::Slice_5774: 0
onnx::Concat_5778: 0
onnx::Concat_5782: 0
onnx::Reshape_5783: 0
input.620: 0
onnx::Mul_5798: 0
(Unnamed Layer* 6940) [Shuffle]_output: 3c21a32b
onnx::Add_5799: 0
(Unnamed Layer* 6943) [Shuffle]_output: 3bc8ce6c
onnx::Add_5800: 0
onnx::MatMul_5801: 0
onnx::Add_5803: 0
(Unnamed Layer* 6950) [Shuffle]_output: 3c94d94d
onnx::Div_5804: 0
(Unnamed Layer* 6953) [Shuffle]_output: 3c3671d7
onnx::Erf_5806: 0
onnx::Add_5807: 0
(Unnamed Layer* 6957) [Shuffle]_output: 3c010204
onnx::Mul_5809: 0
onnx::Mul_5810: 0
(Unnamed Layer* 6961) [Shuffle]_output: 3b810204
input.624: 0
onnx::Add_5814: 0
(Unnamed Layer* 6967) [Shuffle]_output: 3c9c9a82
input.628: 0
onnx::Mul_5824: 0
(Unnamed Layer* 6971) [Shuffle]_output: 3ce04642
onnx::Add_5825: 0
(Unnamed Layer* 6974) [Shuffle]_output: 3d126b7a
onnx::Add_5826: 0
onnx::Shape_5827: 0
onnx::Slice_5841: 0
onnx::Slice_5846: 0
onnx::Slice_5856: 0
onnx::Slice_5866: 0
onnx::Slice_5876: 0
onnx::Concat_5851: 0
onnx::Concat_5861: 0
onnx::Concat_5871: 0
onnx::Concat_5881: 0
onnx::Reshape_5882: 0
input.632: 0
onnx::Mul_5901: 0
(Unnamed Layer* 7215) [Shuffle]_output: 3ce8ab89
onnx::Add_5902: 0
(Unnamed Layer* 7218) [Shuffle]_output: 3d0ec84f
onnx::Shape_5903: 0
onnx::Reshape_5948: 0
onnx::Add_5977: 0
(Unnamed Layer* 7277) [Shuffle]_output: 3cb86872
onnx::Reshape_5978: 0
onnx::Gather_5989: 0
q.87: 0
k.87: 0
onnx::MatMul_5995: 0
(Unnamed Layer* 7295) [ElementWise]_output: 0
(Unnamed Layer* 7296) [Reduce]_output: 0
onnx::Clip_5996: 0
(Unnamed Layer* 7299) [ElementWise]_output: 0
(Unnamed Layer* 7300) [Reduce]_output: 0
onnx::Clip_6004: 0
(Unnamed Layer* 7304) [Shuffle]_output: 280dd87d
(Unnamed Layer* 7305) [Shuffle]_output: 7c010204
(Unnamed Layer* 7306) [ElementWise]_output: 280dd87d
onnx::Expand_6000: 280dd87d
(Unnamed Layer* 7309) [Shuffle]_output: 280dd87d
(Unnamed Layer* 7310) [Shuffle]_output: 7c010204
(Unnamed Layer* 7311) [ElementWise]_output: 280dd87d
onnx::Expand_6008: 280dd87d
onnx::Div_6002: 280dd87d
onnx::Div_6010: 280dd87d
onnx::MatMul_6003: 0
onnx::Transpose_6011: 0
onnx::MatMul_6012: 0
onnx::Mul_6013: 0
(Unnamed Layer* 7337) [Shuffle]_output: 3e1ec7e2
onnx::Add_6020: 0
input.640: 0
(Unnamed Layer* 7350) [Shuffle]_output: 0
(Unnamed Layer* 7351) [Softmax]_output: 0
input.644: 0
onnx::Transpose_6041: 0
onnx::Add_6049: 0
(Unnamed Layer* 7361) [Shuffle]_output: 3df68462
input.648: 0
onnx::Reshape_6062: 0
input.652: 0
onnx::Mul_6079: 0
(Unnamed Layer* 7370) [Shuffle]_output: 3cd54e66
onnx::Add_6080: 0
(Unnamed Layer* 7373) [Shuffle]_output: 3cc6d5fa
onnx::Add_6081: 0
onnx::MatMul_6082: 0
onnx::Add_6084: 0
(Unnamed Layer* 7380) [Shuffle]_output: 3c68c73b
onnx::Div_6085: 0
(Unnamed Layer* 7383) [Shuffle]_output: 3c3671d7
onnx::Erf_6087: 0
onnx::Add_6088: 0
(Unnamed Layer* 7387) [Shuffle]_output: 3c010204
onnx::Mul_6090: 0
onnx::Mul_6091: 0
(Unnamed Layer* 7391) [Shuffle]_output: 3b810204
input.656: 0
onnx::Add_6095: 0
(Unnamed Layer* 7397) [Shuffle]_output: 3c5c0730
input.660: 0
onnx::Mul_6105: 0
(Unnamed Layer* 7401) [Shuffle]_output: 3d393e58
onnx::Add_6106: 0
(Unnamed Layer* 7404) [Shuffle]_output: 3e2ee785
onnx::Add_6107: 0
onnx::Shape_6108: 0
onnx::Reshape_6153: 0
onnx::Add_6182: 0
(Unnamed Layer* 7464) [Shuffle]_output: 3ca03a54
onnx::Reshape_6183: 0
onnx::Gather_6194: 0
q.91: 0
k.91: 0
onnx::MatMul_6200: 0
(Unnamed Layer* 7481) [ElementWise]_output: 0
(Unnamed Layer* 7482) [Reduce]_output: 0
onnx::Clip_6201: 0
(Unnamed Layer* 7485) [ElementWise]_output: 0
(Unnamed Layer* 7486) [Reduce]_output: 0
onnx::Clip_6209: 0
(Unnamed Layer* 7490) [Shuffle]_output: 280dd87d
(Unnamed Layer* 7491) [Shuffle]_output: 7c010204
(Unnamed Layer* 7492) [ElementWise]_output: 280dd87d
onnx::Expand_6205: 280dd87d
(Unnamed Layer* 7495) [Shuffle]_output: 280dd87d
(Unnamed Layer* 7496) [Shuffle]_output: 7c010204
(Unnamed Layer* 7497) [ElementWise]_output: 280dd87d
onnx::Expand_6213: 280dd87d
onnx::Div_6207: 280dd87d
onnx::Div_6215: 280dd87d
onnx::MatMul_6208: 0
onnx::Transpose_6216: 0
onnx::MatMul_6217: 0
onnx::Mul_6218: 0
(Unnamed Layer* 7523) [Shuffle]_output: 3e26075e
onnx::Add_6225: 0
input.668: 0
(Unnamed Layer* 7536) [Shuffle]_output: 0
(Unnamed Layer* 7537) [Softmax]_output: 0
input.672: 0
onnx::Transpose_6246: 0
onnx::Add_6254: 0
(Unnamed Layer* 7547) [Shuffle]_output: 3e0d93a6
input.676: 0
onnx::Reshape_6267: 0
input.680: 0
onnx::Mul_6284: 0
(Unnamed Layer* 7556) [Shuffle]_output: 3d2ab859
onnx::Add_6285: 0
(Unnamed Layer* 7559) [Shuffle]_output: 3c99c129
onnx::Add_6286: 0
onnx::MatMul_6287: 0
onnx::Add_6289: 0
(Unnamed Layer* 7566) [Shuffle]_output: 3c368bb1
onnx::Div_6290: 0
(Unnamed Layer* 7569) [Shuffle]_output: 3c3671d7
onnx::Erf_6292: 0
onnx::Add_6293: 0
(Unnamed Layer* 7573) [Shuffle]_output: 3c010204
onnx::Mul_6295: 0
onnx::Mul_6296: 0
(Unnamed Layer* 7577) [Shuffle]_output: 3b810204
input.684: 0
onnx::Add_6300: 0
(Unnamed Layer* 7583) [Shuffle]_output: 3c67818d
input.688: 0
onnx::Mul_6310: 0
(Unnamed Layer* 7587) [Shuffle]_output: 3d336238
onnx::Add_6311: 0
(Unnamed Layer* 7590) [Shuffle]_output: 3e1d186a
onnx::Add_6312: 0
input.692: 0
onnx::Mul_6322: 0
(Unnamed Layer* 7595) [Shuffle]_output: 3d05b58a
onnx::Add_6323: 0
(Unnamed Layer* 7598) [Shuffle]_output: 3b812f3e
onnx::Transpose_6324: 0
onnx::GlobalAveragePool_6325: 0
output: 0
